#ifndef SINE_MODEL_H
#define SINE_MODEL_H


unsigned int sine_model_len = 3008;
unsigned char sine_model[] = {
 0x20, 0x00, 0x00, 0x00, 0x54, 0x46, 0x4c, 0x33, 0x00, 0x00, 0x00, 0x00,
  0x00, 0x00, 0x12, 0x00, 0x1c, 0x00, 0x04, 0x00, 0x08, 0x00, 0x0c, 0x00,
  0x10, 0x00, 0x14, 0x00, 0x00, 0x00, 0x18, 0x00, 0x12, 0x00, 0x00, 0x00,
  0x03, 0x00, 0x00, 0x00, 0x74, 0x0b, 0x00, 0x00, 0x68, 0x06, 0x00, 0x00,
  0x50, 0x06, 0x00, 0x00, 0x3c, 0x00, 0x00, 0x00, 0x04, 0x00, 0x00, 0x00,
  0x01, 0x00, 0x00, 0x00, 0x0c, 0x00, 0x00, 0x00, 0x08, 0x00, 0x0c, 0x00,
  0x04, 0x00, 0x08, 0x00, 0x08, 0x00, 0x00, 0x00, 0x08, 0x00, 0x00, 0x00,
  0x0b, 0x00, 0x00, 0x00, 0x13, 0x00, 0x00, 0x00, 0x6d, 0x69, 0x6e, 0x5f,
  0x72, 0x75, 0x6e, 0x74, 0x69, 0x6d, 0x65, 0x5f, 0x76, 0x65, 0x72, 0x73,
  0x69, 0x6f, 0x6e, 0x00, 0x0c, 0x00, 0x00, 0x00, 0x08, 0x06, 0x00, 0x00,
  0xf4, 0x05, 0x00, 0x00, 0x98, 0x05, 0x00, 0x00, 0x34, 0x05, 0x00, 0x00,
  0x20, 0x05, 0x00, 0x00, 0xcc, 0x04, 0x00, 0x00, 0xb8, 0x00, 0x00, 0x00,
  0x64, 0x00, 0x00, 0x00, 0x58, 0x00, 0x00, 0x00, 0x44, 0x00, 0x00, 0x00,
  0x30, 0x00, 0x00, 0x00, 0x04, 0x00, 0x00, 0x00, 0x96, 0xfa, 0xff, 0xff,
  0x04, 0x00, 0x00, 0x00, 0x10, 0x00, 0x00, 0x00, 0x31, 0x2e, 0x35, 0x2e,
  0x30, 0x00, 0x00, 0x00, 0x00, 0x00, 0x00, 0x00, 0x00, 0x00, 0x00, 0x00,
  0x00, 0x00, 0x00, 0x00, 0x00, 0x00, 0x00, 0x00, 0x00, 0x00, 0x00, 0x00,
  0x58, 0xf5, 0xff, 0xff, 0x00, 0x00, 0x00, 0x00, 0x00, 0x00, 0x00, 0x00,
  0x00, 0x00, 0x00, 0x00, 0x68, 0xf5, 0xff, 0xff, 0x00, 0x00, 0x00, 0x00,
  0x00, 0x00, 0x00, 0x00, 0x00, 0x00, 0x00, 0x00, 0x78, 0xf5, 0xff, 0xff,
  0x00, 0x00, 0x00, 0x00, 0xe6, 0xfa, 0xff, 0xff, 0x04, 0x00, 0x00, 0x00,
  0x40, 0x00, 0x00, 0x00, 0x72, 0x38, 0xfa, 0xbe, 0x6e, 0x69, 0x96, 0xbf,
  0x92, 0xc7, 0x44, 0x3f, 0x60, 0x96, 0xba, 0x3d, 0xc0, 0x3b, 0xc1, 0xbd,
  0x6c, 0xeb, 0x9d, 0xbf, 0xb6, 0xcc, 0xcf, 0x3f, 0xa8, 0xb4, 0xcd, 0x3e,
  0x91, 0x45, 0xbe, 0xbe, 0xe6, 0x80, 0xdf, 0xbe, 0x27, 0x99, 0xd6, 0x3f,
  0x09, 0x69, 0xe5, 0x3e, 0x13, 0xe9, 0x23, 0xbe, 0x12, 0xae, 0xa5, 0xbe,
  0x83, 0xb3, 0x98, 0xbe, 0x00, 0xc0, 0x08, 0xbf, 0x00, 0x00, 0x00, 0x00,
  0x36, 0xfb, 0xff, 0xff, 0x04, 0x00, 0x00, 0x00, 0x00, 0x04, 0x00, 0x00,
  0x73, 0x7f, 0xaf, 0xbe, 0xa3, 0x32, 0x91, 0x3e, 0xd0, 0x4a, 0xd3, 0xbd,
  0x32, 0x7b, 0x13, 0x3e, 0x24, 0xde, 0xdc, 0xbd, 0xce, 0xae, 0x30, 0xbe,
  0x24, 0xc1, 0xc8, 0xbe, 0x01, 0xa6, 0xa8, 0xbe, 0x8a, 0x5d, 0x81, 0xbe,
  0x71, 0x12, 0xd9, 0xbe, 0xa6, 0xb3, 0x74, 0xbe, 0xe6, 0x50, 0x38, 0x3e,
  0xa4, 0x01, 0xf6, 0xbd, 0xb8, 0x02, 0xff, 0xbd, 0xfe, 0xe6, 0x60, 0xbe,
  0x3f, 0x51, 0xc3, 0xbe, 0x76, 0xf1, 0x63, 0x3e, 0x96, 0x53, 0x15, 0x3e,
  0x7f, 0x64, 0x2f, 0x3f, 0x53, 0x18, 0x84, 0xbe, 0x72, 0xe3, 0x5c, 0x3e,
  0xac, 0xb4, 0x9f, 0x3d, 0x84, 0xb4, 0xa4, 0xbe, 0x8e, 0x8e, 0x2e, 0x3e,
  0xc6, 0xe8, 0xd8, 0xbe, 0x5d, 0x18, 0xd5, 0x3e, 0x87, 0x45, 0xa6, 0xbe,
  0x7e, 0x26, 0x6d, 0xbe, 0x31, 0x7c, 0x46, 0xbf, 0xd2, 0x8b, 0x12, 0x3e,
  0x44, 0xa1, 0xfc, 0xbd, 0x3a, 0x76, 0xe7, 0xbd, 0x4e, 0x4e, 0x8e, 0xbe,
  0x38, 0x7b, 0xda, 0xbd, 0x4b, 0xdd, 0x38, 0x3c, 0xce, 0xe0, 0x9c, 0x3e,
  0xcb, 0xbe, 0xc5, 0x3e, 0x40, 0x37, 0xd6, 0x3b, 0x28, 0x33, 0x7e, 0x3e,
  0x1b, 0xdd, 0xca, 0xbe, 0x6f, 0xa7, 0xed, 0xbd, 0xab, 0xe1, 0x8c, 0x3e,
  0x59, 0xef, 0xcf, 0xbe, 0x44, 0x4c, 0xea, 0xbd, 0x88, 0x65, 0x9d, 0xbe,
  0xb1, 0x74, 0xbc, 0x3e, 0x87, 0x0d, 0xb2, 0x3e, 0x64, 0x3c, 0xa1, 0x3e,
  0x8e, 0x0e, 0xa7, 0xbe, 0xf6, 0xfe, 0xcf, 0xbe, 0x3e, 0x69, 0x45, 0x3d,
  0x2b, 0x81, 0x1e, 0x3e, 0x1a, 0xbb, 0x18, 0x3f, 0xce, 0x27, 0x78, 0xbe,
  0x59, 0x66, 0x47, 0xbd, 0x28, 0x0f, 0x82, 0x3d, 0x0f, 0x9c, 0xd6, 0x3e,
  0xcf, 0x5d, 0xc1, 0x3e, 0x52, 0x27, 0x5e, 0xbe, 0xc0, 0xfa, 0x0d, 0x3d,
  0xee, 0x79, 0x5d, 0x3e, 0x78, 0x51, 0xa8, 0xbd, 0xb0, 0x8e, 0xc4, 0x3c,
  0x7d, 0x62, 0x97, 0x3e, 0x74, 0x9f, 0xc4, 0x3d, 0xe0, 0xdd, 0xf5, 0x3c,
  0x23, 0x7a, 0xc5, 0xbe, 0x10, 0x08, 0x9a, 0x3c, 0x4b, 0x7e, 0xc2, 0x3e,
  0x88, 0xbc, 0xae, 0xbd, 0x00, 0x58, 0x82, 0xb9, 0x68, 0x41, 0xce, 0xbe,
  0x6b, 0x2d, 0x92, 0x3e, 0x0a, 0x04, 0x35, 0x3e, 0xd8, 0x73, 0x33, 0x3d,
  0xf2, 0xaa, 0x6d, 0x3e, 0xdc, 0x87, 0x4d, 0xbe, 0xd2, 0x74, 0x59, 0x3e,
  0x10, 0xc7, 0xfa, 0xbd, 0xb0, 0x0c, 0xa0, 0xbd, 0xa5, 0xe0, 0x9d, 0x3e,
  0x8d, 0x15, 0xd6, 0x3e, 0x90, 0x22, 0xe8, 0x3e, 0x26, 0x57, 0x39, 0xbe,
  0x9e, 0xdd, 0x37, 0xbe, 0x94, 0x03, 0x88, 0xbe, 0xf2, 0x6e, 0xfe, 0xbe,
  0xd4, 0x63, 0x10, 0xbe, 0x28, 0x98, 0x6b, 0xbe, 0x9d, 0x75, 0xa5, 0xbe,
  0x94, 0xe6, 0xf2, 0x3d, 0x0d, 0xbc, 0x94, 0xbe, 0xf4, 0x88, 0x13, 0xbf,
  0xc2, 0x82, 0x55, 0xbe, 0xd4, 0x9e, 0xd1, 0xbd, 0xe5, 0x11, 0x23, 0xbe,
  0xf0, 0x0b, 0xc0, 0xbe, 0xfb, 0x31, 0x5b, 0xbe, 0x3e, 0x8c, 0x08, 0x3e,
  0x41, 0x1e, 0xc4, 0x3e, 0xd5, 0xc5, 0x39, 0x3f, 0x0c, 0x62, 0x8f, 0x3d,
  0x22, 0x8d, 0x9d, 0x3e, 0x6b, 0x7a, 0xdc, 0xbe, 0x7a, 0x19, 0x60, 0x3e,
  0x98, 0xd3, 0xbd, 0xbe, 0x22, 0xa1, 0x39, 0x3e, 0xd0, 0xe5, 0xcf, 0xbc,
  0xec, 0xa4, 0x49, 0xbe, 0xf8, 0x57, 0xfc, 0xbd, 0x1b, 0x77, 0x9e, 0xbe,
  0x28, 0x46, 0xcc, 0x3c, 0x63, 0x45, 0xbd, 0x3e, 0x41, 0xeb, 0x58, 0xbe,
  0xf3, 0xed, 0x34, 0xbe, 0xb2, 0x45, 0xf5, 0x3d, 0x7d, 0x8b, 0x1a, 0x3e,
  0xc0, 0x40, 0x66, 0x3c, 0x1d, 0x89, 0x50, 0xbd, 0x74, 0x96, 0xac, 0xbd,
  0x5f, 0x20, 0x71, 0xbe, 0xc3, 0x0a, 0xbe, 0x3e, 0xd8, 0x27, 0x85, 0xbd,
  0xa6, 0x2e, 0x8d, 0xbe, 0x53, 0xe4, 0x93, 0x3e, 0x7f, 0x01, 0xad, 0x3e,
  0x34, 0xdd, 0x8f, 0xbe, 0xb2, 0x57, 0x9e, 0x3e, 0xd9, 0x21, 0xa7, 0x3e,
  0xe0, 0x6e, 0x38, 0x3c, 0x20, 0xc6, 0x91, 0xbd, 0x2f, 0xd7, 0xe4, 0xbc,
  0xe7, 0x4b, 0xc7, 0xbe, 0x0b, 0x49, 0xb3, 0x3e, 0x17, 0x80, 0x1d, 0xbf,
  0x9c, 0x55, 0x88, 0xbe, 0x22, 0x1f, 0x85, 0xbc, 0x0c, 0xdc, 0x10, 0xbe,
  0x38, 0x01, 0x7a, 0x3d, 0xbd, 0xff, 0x3b, 0xbe, 0x5f, 0x5f, 0xd0, 0x3e,
  0x2e, 0x34, 0x8a, 0xbe, 0x12, 0xf6, 0x4f, 0xbe, 0x69, 0x7b, 0xd4, 0x3e,
  0x4e, 0x48, 0x1a, 0x3e, 0x46, 0x6e, 0x4f, 0x3e, 0x88, 0x0d, 0xb3, 0x3a,
  0x3d, 0x7d, 0xb6, 0xbe, 0x80, 0xc3, 0x5b, 0xbe, 0xe8, 0x2a, 0x3b, 0x3d,
  0x65, 0x21, 0xda, 0x3e, 0x43, 0xcb, 0xc8, 0xbe, 0xa6, 0x16, 0x93, 0xbe,
  0x98, 0x41, 0x60, 0xbd, 0x7a, 0x1b, 0xb9, 0xbe, 0xc7, 0x8b, 0xd9, 0x3e,
  0x0d, 0xb2, 0xb2, 0x3e, 0x10, 0xa5, 0xcd, 0xbc, 0xc5, 0xe8, 0xab, 0x3e,
  0xbc, 0xde, 0xc0, 0xbe, 0x55, 0x65, 0xbc, 0xbe, 0x67, 0x03, 0x58, 0xbe,
  0xa3, 0xe6, 0x4e, 0x3c, 0x1e, 0x2c, 0xc8, 0xbe, 0x1c, 0x29, 0xb9, 0xbf,
  0x2b, 0x1e, 0xa4, 0x3e, 0x96, 0x39, 0x66, 0xbf, 0x3c, 0x97, 0xcb, 0x3d,
  0x4b, 0xa9, 0x41, 0xbf, 0x6a, 0x6d, 0x6a, 0x3e, 0xe0, 0x56, 0xb3, 0xbd,
  0x7e, 0xab, 0x85, 0xbe, 0x93, 0x92, 0x1c, 0x3e, 0xdd, 0xc2, 0xa7, 0xbe,
  0xa3, 0xdd, 0xcb, 0x3e, 0x34, 0xb4, 0xfc, 0x3e, 0xc2, 0x71, 0x81, 0xbe,
  0x5b, 0xf9, 0x93, 0x3e, 0xcf, 0xfb, 0xdc, 0xbe, 0xca, 0x12, 0x63, 0xbe,
  0x25, 0xb9, 0xa9, 0x3e, 0xaa, 0x8b, 0x68, 0x3e, 0xc4, 0x13, 0x9c, 0xbd,
  0x14, 0x94, 0x8f, 0x3d, 0xab, 0x68, 0xda, 0xbe, 0x5c, 0x1b, 0x86, 0xbd,
  0x88, 0x76, 0x00, 0xbe, 0x22, 0x8a, 0x94, 0xbe, 0x09, 0x8b, 0x91, 0x3e,
  0x22, 0x0b, 0x5d, 0x3e, 0x67, 0x01, 0x44, 0xbe, 0x3c, 0xda, 0x9b, 0xbe,
  0x65, 0x47, 0x64, 0xbe, 0x9c, 0x42, 0xa2, 0xbe, 0x24, 0xbf, 0xa3, 0xbe,
  0x70, 0x60, 0x0b, 0x3d, 0xf9, 0x17, 0x57, 0xbe, 0xc3, 0xb3, 0x92, 0x3e,
  0xc3, 0x76, 0x3c, 0xbf, 0xe0, 0x85, 0xd6, 0xbe, 0x43, 0xaa, 0x7c, 0xbe,
  0x46, 0xd0, 0x41, 0xbe, 0x70, 0xba, 0x86, 0xbe, 0x4b, 0xc0, 0x9b, 0x3e,
  0x08, 0xc7, 0x95, 0x3e, 0x3d, 0xcc, 0xbe, 0x3e, 0xfe, 0x22, 0x36, 0x3e,
  0x19, 0xbe, 0xac, 0x3e, 0xf5, 0x8a, 0x91, 0xbe, 0xfb, 0x8a, 0xc4, 0xbe,
  0x40, 0x50, 0x1a, 0x3e, 0xdf, 0x58, 0x80, 0x3e, 0x3f, 0x55, 0x92, 0xbe,
  0x74, 0xe3, 0xed, 0xbd, 0x84, 0x99, 0xb6, 0xbe, 0x10, 0x74, 0x79, 0xbd,
  0x92, 0x5b, 0x21, 0x3e, 0x00, 0x80, 0x83, 0xba, 0x3e, 0xb6, 0x36, 0x3e,
  0x12, 0x00, 0xa6, 0xbe, 0x1d, 0x55, 0xc2, 0x3e, 0x43, 0x95, 0xaf, 0xbe,
  0x26, 0x36, 0xa0, 0xbe, 0xf2, 0x9c, 0xc7, 0x3e, 0x9f, 0xa3, 0xca, 0x3e,
  0xfb, 0xb5, 0xa4, 0x3e, 0x48, 0x5d, 0xa0, 0x3e, 0x29, 0x9a, 0x12, 0xbf,
  0x28, 0x33, 0x5b, 0xbe, 0x97, 0xa5, 0x82, 0x3e, 0x21, 0x78, 0xb3, 0xbd,
  0x4b, 0xb1, 0xb8, 0x3e, 0xf6, 0xe7, 0x1d, 0xbf, 0x35, 0xdf, 0xcd, 0x3e,
  0x2b, 0x32, 0xac, 0xbe, 0xaa, 0xf8, 0xa7, 0xbe, 0x5e, 0xdc, 0x51, 0x3e,
  0xb4, 0xcc, 0xea, 0x3d, 0x6c, 0xa9, 0xc8, 0x3d, 0xcf, 0xca, 0xaf, 0x3e,
  0x8c, 0xd2, 0x9e, 0x3d, 0x91, 0x63, 0xcd, 0xbe, 0x58, 0x48, 0xce, 0x3b,
  0xfd, 0x25, 0x78, 0x3e, 0xca, 0xdd, 0x1c, 0xbf, 0xfd, 0x84, 0x4a, 0xbe,
  0xf6, 0x26, 0x1c, 0xbe, 0x8e, 0x61, 0x20, 0x3e, 0x55, 0x63, 0x1b, 0x3d,
  0x21, 0xab, 0xc9, 0xbe, 0x76, 0x63, 0x33, 0x3e, 0x3b, 0x23, 0xa7, 0xbe,
  0x99, 0x3d, 0xaf, 0xbc, 0xa0, 0x4a, 0xb5, 0xbd, 0x35, 0x45, 0xb1, 0x3e,
  0x09, 0x6c, 0xd7, 0x3e, 0x00, 0x00, 0x00, 0x00, 0x46, 0xff, 0xff, 0xff,
  0x04, 0x00, 0x00, 0x00, 0x40, 0x00, 0x00, 0x00, 0x6c, 0x07, 0x05, 0xbf,
  0xe8, 0x7e, 0x79, 0xbe, 0x81, 0xc7, 0xaa, 0x3d, 0x0f, 0xd4, 0xc7, 0x3e,
  0x45, 0x82, 0x55, 0x3e, 0x92, 0x28, 0x8d, 0xbe, 0xed, 0x07, 0x82, 0x3e,
  0xa0, 0x69, 0x20, 0xbd, 0xe1, 0x98, 0x88, 0x3e, 0xee, 0x9e, 0xfe, 0xbe,
  0x65, 0xf0, 0xa5, 0xbe, 0xc2, 0x23, 0x14, 0xbe, 0xa1, 0xb8, 0xc7, 0x3e,
  0x90, 0x98, 0x6f, 0xbe, 0xbc, 0x6d, 0xcb, 0xbd, 0x63, 0x26, 0x0f, 0x3f,
  0x00, 0x00, 0x00, 0x00, 0x96, 0xff, 0xff, 0xff, 0x04, 0x00, 0x00, 0x00,
  0x04, 0x00, 0x00, 0x00, 0x3d, 0xa1, 0xb2, 0xbe, 0xa6, 0xff, 0xff, 0xff,
  0x04, 0x00, 0x00, 0x00, 0x40, 0x00, 0x00, 0x00, 0x00, 0x00, 0x00, 0x00,
  0xfc, 0x23, 0xf8, 0x3e, 0x18, 0xdf, 0x06, 0xbf, 0x4f, 0x21, 0xaf, 0xbe,
  0x00, 0x00, 0x00, 0x00, 0xe5, 0x1f, 0x02, 0x3f, 0xdb, 0x42, 0x2e, 0xbf,
  0xd8, 0xac, 0x7b, 0xbe, 0x26, 0x02, 0x2a, 0x3e, 0x30, 0xa1, 0xaa, 0xbc,
  0x48, 0xa1, 0x59, 0x3f, 0xb4, 0x35, 0x71, 0xbc, 0x46, 0xbd, 0x9a, 0x3e,
  0x50, 0x46, 0x08, 0x3e, 0x4b, 0x63, 0x14, 0x3e, 0xb0, 0x8f, 0x2c, 0x3e,
  0x00, 0x00, 0x00, 0x00, 0x00, 0x00, 0x00, 0x00, 0x00, 0x00, 0x00, 0x00,
  0x00, 0x00, 0x06, 0x00, 0x08, 0x00, 0x04, 0x00, 0x06, 0x00, 0x00, 0x00,
  0x04, 0x00, 0x00, 0x00, 0x40, 0x00, 0x00, 0x00, 0x00, 0x00, 0x00, 0x00,
  0x00, 0x00, 0x00, 0x00, 0x77, 0xeb, 0x2d, 0xbd, 0x49, 0x0a, 0x46, 0xbf,
  0x2e, 0x56, 0x09, 0xbf, 0x00, 0x00, 0x00, 0x00, 0x29, 0xd2, 0xfb, 0xbe,
  0x00, 0x00, 0x00, 0x00, 0x2b, 0xe0, 0xcd, 0xbe, 0x00, 0x00, 0x00, 0x00,
  0x00, 0x00, 0x00, 0x00, 0x00, 0x00, 0x00, 0x00, 0x8e, 0x9d, 0x6d, 0x3e,
  0x00, 0x00, 0x00, 0x00, 0x00, 0x00, 0x00, 0x00, 0x62, 0xe6, 0x29, 0x3e,
  0x00, 0x00, 0x00, 0x00, 0x00, 0x00, 0x00, 0x00, 0x00, 0x00, 0x00, 0x00,
  0xf8, 0xfa, 0xff, 0xff, 0x00, 0x00, 0x00, 0x00, 0x00, 0x00, 0x00, 0x00,
  0x00, 0x00, 0x00, 0x00, 0x08, 0xfb, 0xff, 0xff, 0x0f, 0x00, 0x00, 0x00,
  0x4d, 0x4c, 0x49, 0x52, 0x20, 0x43, 0x6f, 0x6e, 0x76, 0x65, 0x72, 0x74,
  0x65, 0x64, 0x2e, 0x00, 0x01, 0x00, 0x00, 0x00, 0x14, 0x00, 0x00, 0x00,
  0x00, 0x00, 0x0e, 0x00, 0x18, 0x00, 0x04, 0x00, 0x08, 0x00, 0x0c, 0x00,
  0x10, 0x00, 0x14, 0x00, 0x0e, 0x00, 0x00, 0x00, 0x00, 0x01, 0x00, 0x00,
  0xf4, 0x00, 0x00, 0x00, 0xe8, 0x00, 0x00, 0x00, 0x14, 0x00, 0x00, 0x00,
  0x04, 0x00, 0x00, 0x00, 0x04, 0x00, 0x00, 0x00, 0x6d, 0x61, 0x69, 0x6e,
  0x00, 0x00, 0x00, 0x00, 0x03, 0x00, 0x00, 0x00, 0x90, 0x00, 0x00, 0x00,
  0x48, 0x00, 0x00, 0x00, 0x04, 0x00, 0x00, 0x00, 0xce, 0xff, 0xff, 0xff,
  0x00, 0x00, 0x00, 0x08, 0x18, 0x00, 0x00, 0x00, 0x0c, 0x00, 0x00, 0x00,
  0x04, 0x00, 0x00, 0x00, 0x80, 0xfb, 0xff, 0xff, 0x01, 0x00, 0x00, 0x00,
  0x09, 0x00, 0x00, 0x00, 0x03, 0x00, 0x00, 0x00, 0x08, 0x00, 0x00, 0x00,
  0x06, 0x00, 0x00, 0x00, 0x03, 0x00, 0x00, 0x00, 0x00, 0x00, 0x0e, 0x00,
  0x14, 0x00, 0x00, 0x00, 0x08, 0x00, 0x0c, 0x00, 0x07, 0x00, 0x10, 0x00,
  0x0e, 0x00, 0x00, 0x00, 0x00, 0x00, 0x00, 0x08, 0x1c, 0x00, 0x00, 0x00,
  0x10, 0x00, 0x00, 0x00, 0x04, 0x00, 0x00, 0x00, 0xba, 0xff, 0xff, 0xff,
  0x00, 0x00, 0x00, 0x01, 0x01, 0x00, 0x00, 0x00, 0x08, 0x00, 0x00, 0x00,
  0x03, 0x00, 0x00, 0x00, 0x07, 0x00, 0x00, 0x00, 0x05, 0x00, 0x00, 0x00,
  0x02, 0x00, 0x00, 0x00, 0x00, 0x00, 0x0e, 0x00, 0x16, 0x00, 0x00, 0x00,
  0x08, 0x00, 0x0c, 0x00, 0x07, 0x00, 0x10, 0x00, 0x0e, 0x00, 0x00, 0x00,
  0x00, 0x00, 0x00, 0x08, 0x24, 0x00, 0x00, 0x00, 0x18, 0x00, 0x00, 0x00,
  0x0c, 0x00, 0x00, 0x00, 0x00, 0x00, 0x06, 0x00, 0x08, 0x00, 0x07, 0x00,
  0x06, 0x00, 0x00, 0x00, 0x00, 0x00, 0x00, 0x01, 0x01, 0x00, 0x00, 0x00,
  0x07, 0x00, 0x00, 0x00, 0x03, 0x00, 0x00, 0x00, 0x00, 0x00, 0x00, 0x00,
  0x04, 0x00, 0x00, 0x00, 0x01, 0x00, 0x00, 0x00, 0x01, 0x00, 0x00, 0x00,
  0x09, 0x00, 0x00, 0x00, 0x01, 0x00, 0x00, 0x00, 0x00, 0x00, 0x00, 0x00,
  0x0a, 0x00, 0x00, 0x00, 0x9c, 0x03, 0x00, 0x00, 0x28, 0x03, 0x00, 0x00,
  0xb8, 0x02, 0x00, 0x00, 0x58, 0x02, 0x00, 0x00, 0x0c, 0x02, 0x00, 0x00,
  0xc0, 0x01, 0x00, 0x00, 0x74, 0x01, 0x00, 0x00, 0xe0, 0x00, 0x00, 0x00,
  0x4c, 0x00, 0x00, 0x00, 0x04, 0x00, 0x00, 0x00, 0xa0, 0xfc, 0xff, 0xff,
  0x34, 0x00, 0x00, 0x00, 0x0a, 0x00, 0x00, 0x00, 0x1c, 0x00, 0x00, 0x00,
  0x14, 0x00, 0x00, 0x00, 0x04, 0x00, 0x00, 0x00, 0x02, 0x00, 0x00, 0x00,
  0xff, 0xff, 0xff, 0xff, 0x01, 0x00, 0x00, 0x00, 0x8c, 0xfc, 0xff, 0xff,
  0x08, 0x00, 0x00, 0x00, 0x49, 0x64, 0x65, 0x6e, 0x74, 0x69, 0x74, 0x79,
  0x00, 0x00, 0x00, 0x00, 0x02, 0x00, 0x00, 0x00, 0x01, 0x00, 0x00, 0x00,
  0x01, 0x00, 0x00, 0x00, 0xe4, 0xfc, 0xff, 0xff, 0x80, 0x00, 0x00, 0x00,
  0x09, 0x00, 0x00, 0x00, 0x1c, 0x00, 0x00, 0x00, 0x14, 0x00, 0x00, 0x00,
  0x04, 0x00, 0x00, 0x00, 0x02, 0x00, 0x00, 0x00, 0xff, 0xff, 0xff, 0xff,
  0x10, 0x00, 0x00, 0x00, 0xd0, 0xfc, 0xff, 0xff, 0x55, 0x00, 0x00, 0x00,
  0x73, 0x65, 0x71, 0x75, 0x65, 0x6e, 0x74, 0x69, 0x61, 0x6c, 0x5f, 0x37,
  0x2f, 0x64, 0x65, 0x6e, 0x73, 0x65, 0x5f, 0x32, 0x30, 0x2f, 0x4d, 0x61,
  0x74, 0x4d, 0x75, 0x6c, 0x3b, 0x73, 0x65, 0x71, 0x75, 0x65, 0x6e, 0x74,
  0x69, 0x61, 0x6c, 0x5f, 0x37, 0x2f, 0x64, 0x65, 0x6e, 0x73, 0x65, 0x5f,
  0x32, 0x30, 0x2f, 0x52, 0x65, 0x6c, 0x75, 0x3b, 0x73, 0x65, 0x71, 0x75,
  0x65, 0x6e, 0x74, 0x69, 0x61, 0x6c, 0x5f, 0x37, 0x2f, 0x64, 0x65, 0x6e,
  0x73, 0x65, 0x5f, 0x32, 0x30, 0x2f, 0x42, 0x69, 0x61, 0x73, 0x41, 0x64,
  0x64, 0x00, 0x00, 0x00, 0x02, 0x00, 0x00, 0x00, 0x01, 0x00, 0x00, 0x00,
  0x10, 0x00, 0x00, 0x00, 0x74, 0xfd, 0xff, 0xff, 0x80, 0x00, 0x00, 0x00,
  0x08, 0x00, 0x00, 0x00, 0x1c, 0x00, 0x00, 0x00, 0x14, 0x00, 0x00, 0x00,
  0x04, 0x00, 0x00, 0x00, 0x02, 0x00, 0x00, 0x00, 0xff, 0xff, 0xff, 0xff,
  0x10, 0x00, 0x00, 0x00, 0x60, 0xfd, 0xff, 0xff, 0x55, 0x00, 0x00, 0x00,
  0x73, 0x65, 0x71, 0x75, 0x65, 0x6e, 0x74, 0x69, 0x61, 0x6c, 0x5f, 0x37,
  0x2f, 0x64, 0x65, 0x6e, 0x73, 0x65, 0x5f, 0x31, 0x39, 0x2f, 0x4d, 0x61,
  0x74, 0x4d, 0x75, 0x6c, 0x3b, 0x73, 0x65, 0x71, 0x75, 0x65, 0x6e, 0x74,
  0x69, 0x61, 0x6c, 0x5f, 0x37, 0x2f, 0x64, 0x65, 0x6e, 0x73, 0x65, 0x5f,
  0x31, 0x39, 0x2f, 0x52, 0x65, 0x6c, 0x75, 0x3b, 0x73, 0x65, 0x71, 0x75,
  0x65, 0x6e, 0x74, 0x69, 0x61, 0x6c, 0x5f, 0x37, 0x2f, 0x64, 0x65, 0x6e,
  0x73, 0x65, 0x5f, 0x31, 0x39, 0x2f, 0x42, 0x69, 0x61, 0x73, 0x41, 0x64,
  0x64, 0x00, 0x00, 0x00, 0x02, 0x00, 0x00, 0x00, 0x01, 0x00, 0x00, 0x00,
  0x10, 0x00, 0x00, 0x00, 0x6e, 0xfe, 0xff, 0xff, 0x38, 0x00, 0x00, 0x00,
  0x07, 0x00, 0x00, 0x00, 0x0c, 0x00, 0x00, 0x00, 0x04, 0x00, 0x00, 0x00,
  0xe0, 0xfd, 0xff, 0xff, 0x1c, 0x00, 0x00, 0x00, 0x73, 0x65, 0x71, 0x75,
  0x65, 0x6e, 0x74, 0x69, 0x61, 0x6c, 0x5f, 0x37, 0x2f, 0x64, 0x65, 0x6e,
  0x73, 0x65, 0x5f, 0x32, 0x31, 0x2f, 0x4d, 0x61, 0x74, 0x4d, 0x75, 0x6c,
  0x00, 0x00, 0x00, 0x00, 0x02, 0x00, 0x00, 0x00, 0x01, 0x00, 0x00, 0x00,
  0x10, 0x00, 0x00, 0x00, 0xb6, 0xfe, 0xff, 0xff, 0x38, 0x00, 0x00, 0x00,
  0x06, 0x00, 0x00, 0x00, 0x0c, 0x00, 0x00, 0x00, 0x04, 0x00, 0x00, 0x00,
  0x28, 0xfe, 0xff, 0xff, 0x1c, 0x00, 0x00, 0x00, 0x73, 0x65, 0x71, 0x75,
  0x65, 0x6e, 0x74, 0x69, 0x61, 0x6c, 0x5f, 0x37, 0x2f, 0x64, 0x65, 0x6e,
  0x73, 0x65, 0x5f, 0x32, 0x30, 0x2f, 0x4d, 0x61, 0x74, 0x4d, 0x75, 0x6c,
  0x00, 0x00, 0x00, 0x00, 0x02, 0x00, 0x00, 0x00, 0x10, 0x00, 0x00, 0x00,
  0x10, 0x00, 0x00, 0x00, 0xfe, 0xfe, 0xff, 0xff, 0x38, 0x00, 0x00, 0x00,
  0x05, 0x00, 0x00, 0x00, 0x0c, 0x00, 0x00, 0x00, 0x04, 0x00, 0x00, 0x00,
  0x70, 0xfe, 0xff, 0xff, 0x1c, 0x00, 0x00, 0x00, 0x73, 0x65, 0x71, 0x75,
  0x65, 0x6e, 0x74, 0x69, 0x61, 0x6c, 0x5f, 0x37, 0x2f, 0x64, 0x65, 0x6e,
  0x73, 0x65, 0x5f, 0x31, 0x39, 0x2f, 0x4d, 0x61, 0x74, 0x4d, 0x75, 0x6c,
  0x00, 0x00, 0x00, 0x00, 0x02, 0x00, 0x00, 0x00, 0x10, 0x00, 0x00, 0x00,
  0x01, 0x00, 0x00, 0x00, 0x46, 0xff, 0xff, 0xff, 0x50, 0x00, 0x00, 0x00,
  0x04, 0x00, 0x00, 0x00, 0x0c, 0x00, 0x00, 0x00, 0x04, 0x00, 0x00, 0x00,
  0xb8, 0xfe, 0xff, 0xff, 0x35, 0x00, 0x00, 0x00, 0x73, 0x65, 0x71, 0x75,
  0x65, 0x6e, 0x74, 0x69, 0x61, 0x6c, 0x5f, 0x37, 0x2f, 0x64, 0x65, 0x6e,
  0x73, 0x65, 0x5f, 0x32, 0x31, 0x2f, 0x42, 0x69, 0x61, 0x73, 0x41, 0x64,
  0x64, 0x2f, 0x52, 0x65, 0x61, 0x64, 0x56, 0x61, 0x72, 0x69, 0x61, 0x62,
  0x6c, 0x65, 0x4f, 0x70, 0x2f, 0x72, 0x65, 0x73, 0x6f, 0x75, 0x72, 0x63,
  0x65, 0x00, 0x00, 0x00, 0x01, 0x00, 0x00, 0x00, 0x01, 0x00, 0x00, 0x00,
  0xa2, 0xff, 0xff, 0xff, 0x50, 0x00, 0x00, 0x00, 0x03, 0x00, 0x00, 0x00,
  0x0c, 0x00, 0x00, 0x00, 0x04, 0x00, 0x00, 0x00, 0x14, 0xff, 0xff, 0xff,
  0x35, 0x00, 0x00, 0x00, 0x73, 0x65, 0x71, 0x75, 0x65, 0x6e, 0x74, 0x69,
  0x61, 0x6c, 0x5f, 0x37, 0x2f, 0x64, 0x65, 0x6e, 0x73, 0x65, 0x5f, 0x32,
  0x30, 0x2f, 0x42, 0x69, 0x61, 0x73, 0x41, 0x64, 0x64, 0x2f, 0x52, 0x65,
  0x61, 0x64, 0x56, 0x61, 0x72, 0x69, 0x61, 0x62, 0x6c, 0x65, 0x4f, 0x70,
  0x2f, 0x72, 0x65, 0x73, 0x6f, 0x75, 0x72, 0x63, 0x65, 0x00, 0x00, 0x00,
  0x01, 0x00, 0x00, 0x00, 0x10, 0x00, 0x00, 0x00, 0x00, 0x00, 0x0e, 0x00,
  0x14, 0x00, 0x04, 0x00, 0x00, 0x00, 0x08, 0x00, 0x0c, 0x00, 0x10, 0x00,
  0x0e, 0x00, 0x00, 0x00, 0x50, 0x00, 0x00, 0x00, 0x02, 0x00, 0x00, 0x00,
  0x0c, 0x00, 0x00, 0x00, 0x04, 0x00, 0x00, 0x00, 0x80, 0xff, 0xff, 0xff,
  0x35, 0x00, 0x00, 0x00, 0x73, 0x65, 0x71, 0x75, 0x65, 0x6e, 0x74, 0x69,
  0x61, 0x6c, 0x5f, 0x37, 0x2f, 0x64, 0x65, 0x6e, 0x73, 0x65, 0x5f, 0x31,
  0x39, 0x2f, 0x42, 0x69, 0x61, 0x73, 0x41, 0x64, 0x64, 0x2f, 0x52, 0x65,
  0x61, 0x64, 0x56, 0x61, 0x72, 0x69, 0x61, 0x62, 0x6c, 0x65, 0x4f, 0x70,
  0x2f, 0x72, 0x65, 0x73, 0x6f, 0x75, 0x72, 0x63, 0x65, 0x00, 0x00, 0x00,
  0x01, 0x00, 0x00, 0x00, 0x10, 0x00, 0x00, 0x00, 0x14, 0x00, 0x18, 0x00,
  0x04, 0x00, 0x00, 0x00, 0x08, 0x00, 0x0c, 0x00, 0x10, 0x00, 0x00, 0x00,
  0x00, 0x00, 0x14, 0x00, 0x14, 0x00, 0x00, 0x00, 0x3c, 0x00, 0x00, 0x00,
  0x01, 0x00, 0x00, 0x00, 0x20, 0x00, 0x00, 0x00, 0x18, 0x00, 0x00, 0x00,
  0x04, 0x00, 0x00, 0x00, 0x02, 0x00, 0x00, 0x00, 0xff, 0xff, 0xff, 0xff,
  0x01, 0x00, 0x00, 0x00, 0x04, 0x00, 0x04, 0x00, 0x04, 0x00, 0x00, 0x00,
  0x0e, 0x00, 0x00, 0x00, 0x64, 0x65, 0x6e, 0x73, 0x65, 0x5f, 0x31, 0x39,
  0x5f, 0x69, 0x6e, 0x70, 0x75, 0x74, 0x00, 0x00, 0x02, 0x00, 0x00, 0x00,
  0x01, 0x00, 0x00, 0x00, 0x01, 0x00, 0x00, 0x00, 0x01, 0x00, 0x00, 0x00,
  0x10, 0x00, 0x00, 0x00, 0x0c, 0x00, 0x10, 0x00, 0x07, 0x00, 0x00, 0x00,
  0x08, 0x00, 0x0c, 0x00, 0x0c, 0x00, 0x00, 0x00, 0x00, 0x00, 0x00, 0x09,
  0x09, 0x00, 0x00, 0x00, 0x09, 0x00, 0x00, 0x00
};

#endif //SINE_MODEL_H